// Simple test weights for 3 filters, 3 channels, 3x3 kernel
// Filter 0, Channel 0 (9 weights)
01
00
01
00
01
00
01
00
01
// Filter 0, Channel 1 (9 weights)
00
01
00
01
02
01
00
01
00
// Filter 0, Channel 2 (9 weights)
01
01
01
01
01
01
01
01
01
// Filter 1, Channel 0 (9 weights)
02
00
02
00
02
00
02
00
02
// Filter 1, Channel 1 (9 weights)
00
02
00
02
04
02
00
02
00
// Filter 1, Channel 2 (9 weights)
02
02
02
02
02
02
02
02
02
// Filter 2, Channel 0 (9 weights)
03
00
03
00
03
00
03
00
03
// Filter 2, Channel 1 (9 weights)
00
03
00
03
06
03
00
03
00
// Filter 2, Channel 2 (9 weights)
03
03
03
03
03
03
03
03
03 