0001
0002
0001
0002
FFFC
0002
0001
0002
0001
0000
0001
0000
0001
FFFE
0001
0000
0001
0000
0001
0000
0001
0000
FFFE
0000
0001
0000
0001
0001
0001
0001
0001
0001
0001
0001
0001
0001
0001
0001
0001
0001
0001
0001
0001
0001
0001
0001
0001
0001
0001
0001
0001
0001
0001
0001
0001
0002
0001
0002
0004
0002
0001
0002
0001
0001
0002
0001
0002
0004
0002
0001
0002
0001
0001
0002
0001
0002
0004
0002
0001
0002
0001 