FF
00
01
FE
00
02
FF
00
01
FF
00
01
FE
00
02
FF
00
01
FF
00
01
FE
00
02
FF
00
01
01
01
01
01
01
01
01
01
01
01
01
01
01
01
01
01
01
01
01
01
01
01
01
01
01
01
01
00
FF
00
FF
05
FF
00
FF
00
00
FF
00
FF
05
FF
00
FF
00
00
FF
00
FF
05
FF
00
FF
00 